F4
11
F7
F6
FA
05
F5
0C
F2
FB
06
05
FF
09
EB
0B
08
04
03
FB
FE
FD
0F
03
0A
07
05
12
F6
F6
00
EC
FA
FD
FF
FF
FF
00
0B
F3
09
FF
03
FF
0A
00
06
07
07
FA
0D
EA
04
00
E7
F9
F9
14
07
0A
04
05
FA
F8
F0
F0
EC
FD
01
F6
F4
0B
1D
FA
F2
F2
11
FE
00
F5
F3
04
06
FC
0B
02
FE
FF
04
F7
FB
05
FE
0B
FE
FF
0E
0B
F9
02
F6
02
02
EB
FC
F9
F0
E9
FD
00
03
03
16
0E
0B
04
F6
14
15
F8
FA
F8
F8
0E
F8
0A
0B
F8
00
02
05
04
05
FE
FC
12
05
FB
F6
02
F8
F9
FC
12
06
F2
F4
EF
F5
FF
FE
F2
00
F3
FE
FC
15
0B
06
FA
0A
06
F7
12
FF
0E
FE
11
02
04
04
FC
0A
F8
FF
04
13
FC
FF
F4
FD
FD
FE
08
03
0F
04
F7
F8
05
F2
FD
FF
1B
08
E9
0B
F9
03
EF
0F
FB
02
01
08
FC
05
08
00
08
FA
E6
E6
F2
CD
AE
0B
F8
FC
0E
11
FB
FD
14
FE
FF
FD
07
FD
02
FF
0B
06
F8
02
17
15
F9
F3
07
FE
08
04
07
02
F9
FD
F7
FD
F9
05
FA
0A
FE
05
F2
1C
FA
FC
00
0C
13
0F
FE
ED
FE
19
F0
FE
04
0B
F5
02
05
01
01
07
08
07
EF
03
0B
FC
0B
05
0C
03
F1
