F3B
F7F
287
0F0
DC9
F33
016
0DB
F3A
E72
E3C
2E8
232
D11
12C
E95
06B
EA0
15F
171
26D
D86
E20
FFF
084
FC5
E7E
00D
EF7
4E5
F63
0F0
FA4
DAC
1E5
016
274
135
16A
EAB
F2F
31D
F48
F59
F1F
E54
EAD
20D
DB4
259
F07
E9D
063
332
0CC
F83
157
FB6
150
CC8
DC5
317
010
D2C
259
00B
124
0E6
265
0CC
D6A
DA1
EB8
08B
F52
174
1E4
149
F3E
E0D
E80
E75
FD0
FA2
FBC
FA2
3D6
0C9
2A9
015
19A
E7E
F0F
F33
039
F06
DCE
004
D3A
0BA
11D
1B5
E5A
0C0
F44
1A1
192
FB5
FC5
227
D80
FC2
DC9
FD8
16F
0EB
175
E62
EC3
200
F5C
FC3
F97
1DC
FB9
D6A
028
FE5
21D
09F
EB5
137
EEB
E18
D21
DF9
155
EE9
F4F
F6F
FBF
207
146
0A5
0EA
300
EDC
FB7
E5C
F81
BA3
005
082
0C5
FD8
FE5
C95
DEF
FA6
260
D08
D6A
D7F
E93
015
F74
1AE
076
F42
1E5
F34
D2F
0A2
FBF
038
F22
1E5
EF2
FC0
FB2
FD7
06F
10A
013
E76
F89
EC9
325
0B5
E0D
F06
EDB
CF6
C61
CCA
EBF
FC5
CA3
15A
C2A
E08
AAB
0F7
0C4
26A
063
08B
20F
1F9
102
EF7
107
EBF
F9E
F7F
F22
919
ED4
E23
048
2DA
F04
E9D
0FC
296
23E
F7B
00A
267
FCD
0D9
236
2B9
075
E8C
108
D97
179
F83
C95
DAD
13E
174
EB8
CEB
023
EA8
D67
14D
0C2
F61
F19
10A
DE4
FAF
07E
19C
E7D
FAA
01D
E0C
293
E8D
23F
E23
DAF
2C4
FF9
F7F
E97
03C
027
12D
F2D
E85
060
E55
F15
103
110
BAC
022
1D0
F40
F6F
09E
11B
EF8
114
272
EC2
037
B7F
DC3
067
020
1C3
EC5
DD9
E1F
F7C
15F
0FF
10B
FD1
CD6
011
EE3
F3E
FFC
DE2
022
FCA
E85
20B
EC0
D9A
FCC
F10
136
