04
7B
0B
0A
05
0C
6A
7C
04
6C
79
10
05
08
6B
7E
00
14
76
06
04
6E
7C
7F
7A
0D
75
6E
0A
7E
00
7F
0B
7B
04
78
0C
06
01
7C
04
5A
04
7E
0B
0E
6B
02
7D
05
77
7D
76
6E
07
0D
7C
08
77
08
74
0E
07
6F
61
71
00
7A
08
0B
0C
02
05
73
7F
09
03
75
02
76
00
78
7D
79
0F
7F
08
04
01
06
7C
07
6B
7A
0C
7A
08
7C
02
06
7D
76
77
7A
7D
08
01
00
00
7C
04
7F
05
7A
77
06
02
76
7F
00
7F
05
76
00
79
75
75
04
00
11
79
02
7D
66
7E
7A
7A
19
02
17
75
02
07
6D
01
75
7A
03
0E
7F
7A
14
75
0F
7B
7D
12
7E
7D
7B
7C
7F
0F
76
09
6A
78
71
00
61
6D
08
03
02
01
00
03
74
0B
03
76
17
0A
08
09
7E
75
02
09
75
04
7D
78
0B
7B
0A
75
18
08
0D
06
20
11
6B
10
72
0D
7A
04
74
7A
00
00
75
00
79
73
73
7C
01
01
0C
06
0B
06
7B
0F
6B
7C
0A
01
7C
01
6B
02
7B
0F
04
7C
7C
7D
05
06
0A
6E
05
0F
7A
09
6F
7A
0D
72
0B
0D
7D
0D
7C
77
75
02
10
00
04
01
5C
0E
09
06
01
69
0C
09
04
05
06
7D
66
00
02
77
7D
74
73
79
12
0D
79
6F
03
0F
6E
77
03
7E
76
02
0C
0C
0D
06
79
7F
02
00
7D
0F
01
02
01
10
0D
6E
70
0B
7B
7A
79
0D
7D
66
0A
01
0B
06
5C
6E
70
73
02
77
02
72
04
0D
7D
71
02
07
09
6F
11
7A
01
0F
7A
07
07
78
77
7F
0E
09
79
0E
7D
06
78
00
7E
6E
79
79
7E
0A
77
69
00
7A
7C
7B
01
05
7E
78
0B
09
1A
75
06
04
08
7E
0E
7D
7D
70
0E
04
61
0C
07
7F
7A
7D
7E
05
7C
78
7E
78
6F
76
76
0B
0E
7C
02
0A
10
0A
06
09
79
74
0A
74
7F
5F
7F
10
7F
7F
02
07
60
12
0E
71
78
08
78
78
13
05
08
09
7B
7B
09
02
05
78
7F
7D
7D
05
6E
05
69
07
09
7C
08
01
0E
09
7F
76
71
09
02
76
0F
07
0B
72
74
7D
04
72
76
04
02
0B
03
08
7A
06
0C
75
09
01
0C
79
7E
63
00
71
1E
7C
78
77
0A
1E
06
0B
79
08
05
05
72
78
01
02
75
0D
6C
01
08
7C
7F
73
67
73
13
7C
00
7B
04
0D
7C
7A
02
0B
79
0B
10
00
02
77
7A
01
0B
7A
6C
0F
7D
11
03
04
7E
7A
05
12
0D
0D
7E
7C
0F
0D
7B
75
15
76
1A
6E
7B
05
0E
07
04
0C
0A
01
71
77
7D
79
05
07
70
0C
06
7F
0B
7E
02
7E
05
7D
09
7E
79
07
77
7A
77
76
05
01
7C
79
76
76
76
04
7E
01
06
7A
07
02
07
7A
05
02
77
7A
01
7E
01
05
03
00
7A
7B
04
04
7B
05
01
02
78
7D
05
7B
78
77
04
08
01
78
7A
04
7C
7B
7B
78
7C
10
10
7F
00
7B
7F
0B
7B
04
1B
72
75
7D
01
71
7A
7C
70
06
7C
09
11
04
08
06
7B
7C
0F
01
07
77
02
75
0D
12
7B
7C
10
76
05
07
1B
03
03
07
79
14
01
14
7E
0E
03
7B
71
04
0A
6B
7C
0B
68
0D
05
76
7D
6A
70
08
0A
03
71
01
78
03
78
7A
7C
10
7C
0B
70
05
78
0C
07
00
14
03
0D
7F
06
7D
7B
07
6A
7C
0A
7F
0B
72
08
05
66
76
7C
07
73
78
00
75
05
7F
79
00
78
03
04
7F
0E
08
06
10
71
02
07
7F
77
7F
7D
0A
08
7D
0A
7B
0F
02
7A
01
77
03
65
78
06
68
74
0C
7E
0B
7D
7C
05
05
0D
00
7E
01
04
7E
78
06
07
06
7A
7B
00
06
09
76
77
78
77
04
7D
7E
77
07
05
77
77
7F
05
77
01
04
00
01
76
77
7D
7A
77
02
78
77
00
0C
02
05
77
70
02
07
63
7A
78
03
18
7B
74
07
04
01
08
79
7F
06
06
04
01
7F
70
00
7E
07
01
7F
7F
66
04
7F
7D
13
7E
07
7B
09
7D
01
6D
0E
02
6A
01
0D
03
05
16
0A
78
00
61
09
0B
7A
0A
05
7C
7A
7A
6B
07
01
7F
7E
7F
7E
0C
04
77
04
6E
0C
7D
6C
78
00
03
79
78
05
02
02
7C
05
05
10
04
7E
0C
02
13
07
00
6C
1F
62
04
78
06
76
7B
79
04
7C
02
03
03
0A
05
70
71
06
7E
7E
0B
7A
72
7B
05
7D
07
7C
06
7D
04
7C
7E
78
02
75
7D
7A
7C
7B
7D
77
00
7C
06
76
02
7F
06
7C
78
03
01
7B
7C
75
76
7D
01
0D
75
03
05
78
07
04
00
01
7F
72
04
7C
73
75
05
7E
06
6C
78
0E
76
7A
03
09
00
74
7C
04
06
03
10
